{
  "Ā": 0,
  "ā": 1,
  "Ă": 2,
  "ă": 3,
  "Ą": 4,
  "ą": 5,
  "Ć": 6,
  "ć": 7,
  "Ĉ": 8,
  "ĉ": 9,
  "Ċ": 10,
  "ċ": 11,
  "Č": 12,
  "č": 13,
  "Ď": 14,
  "ď": 15,
  "Đ": 16,
  "đ": 17,
  "Ē": 18,
  "ē": 19,
  "Ĕ": 20,
  "ĕ": 21,
  "Ė": 22,
  "ė": 23,
  "Ę": 24,
  "ę": 25,
  "Ě": 26,
  "ě": 27,
  "Ĝ": 28,
  "ĝ": 29,
  "Ğ": 30,
  "ğ": 31,
  "Ġ": 32,
  "!": 33,
  "\"": 34,
  "#": 35,
  "$": 36,
  "%": 37,
  "&": 38,
  "'": 39,
  "(": 40,
  ")": 41,
  "*": 42,
  "+": 43,
  ",": 44,
  "-": 45,
  ".": 46,
  "/": 47,
  "0": 48,
  "1": 49,
  "2": 50,
  "3": 51,
  "4": 52,
  "5": 53,
  "6": 54,
  "7": 55,
  "8": 56,
  "9": 57,
  ":": 58,
  ";": 59,
  "<": 60,
  "=": 61,
  ">": 62,
  "?": 63,
  "@": 64,
  "A": 65,
  "B": 66,
  "C": 67,
  "D": 68,
  "E": 69,
  "F": 70,
  "G": 71,
  "H": 72,
  "I": 73,
  "J": 74,
  "K": 75,
  "L": 76,
  "M": 77,
  "N": 78,
  "O": 79,
  "P": 80,
  "Q": 81,
  "R": 82,
  "S": 83,
  "T": 84,
  "U": 85,
  "V": 86,
  "W": 87,
  "X": 88,
  "Y": 89,
  "Z": 90,
  "[": 91,
  "\\": 92,
  "]": 93,
  "^": 94,
  "_": 95,
  "`": 96,
  "a": 97,
  "b": 98,
  "c": 99,
  "d": 100,
  "e": 101,
  "f": 102,
  "g": 103,
  "h": 104,
  "i": 105,
  "j": 106,
  "k": 107,
  "l": 108,
  "m": 109,
  "n": 110,
  "o": 111,
  "p": 112,
  "q": 113,
  "r": 114,
  "s": 115,
  "t": 116,
  "u": 117,
  "v": 118,
  "w": 119,
  "x": 120,
  "y": 121,
  "z": 122,
  "{": 123,
  "|": 124,
  "}": 125,
  "~": 126,
  "ġ": 127,
  "Ģ": 128,
  "ģ": 129,
  "Ĥ": 130,
  "ĥ": 131,
  "Ħ": 132,
  "ħ": 133,
  "Ĩ": 134,
  "ĩ": 135,
  "Ī": 136,
  "ī": 137,
  "Ĭ": 138,
  "ĭ": 139,
  "Į": 140,
  "į": 141,
  "İ": 142,
  "ı": 143,
  "Ĳ": 144,
  "ĳ": 145,
  "Ĵ": 146,
  "ĵ": 147,
  "Ķ": 148,
  "ķ": 149,
  "ĸ": 150,
  "Ĺ": 151,
  "ĺ": 152,
  "Ļ": 153,
  "ļ": 154,
  "Ľ": 155,
  "ľ": 156,
  "Ŀ": 157,
  "ŀ": 158,
  "Ł": 159,
  "ł": 160,
  "¡": 161,
  "¢": 162,
  "£": 163,
  "¤": 164,
  "¥": 165,
  "¦": 166,
  "§": 167,
  "¨": 168,
  "©": 169,
  "ª": 170,
  "«": 171,
  "¬": 172,
  "Ń": 173,
  "®": 174,
  "¯": 175,
  "°": 176,
  "±": 177,
  "²": 178,
  "³": 179,
  "´": 180,
  "µ": 181,
  "¶": 182,
  "·": 183,
  "¸": 184,
  "¹": 185,
  "º": 186,
  "»": 187,
  "¼": 188,
  "½": 189,
  "¾": 190,
  "¿": 191,
  "À": 192,
  "Á": 193,
  "Â": 194,
  "Ã": 195,
  "Ä": 196,
  "Å": 197,
  "Æ": 198,
  "Ç": 199,
  "È": 200,
  "É": 201,
  "Ê": 202,
  "Ë": 203,
  "Ì": 204,
  "Í": 205,
  "Î": 206,
  "Ï": 207,
  "Ð": 208,
  "Ñ": 209,
  "Ò": 210,
  "Ó": 211,
  "Ô": 212,
  "Õ": 213,
  "Ö": 214,
  "×": 215,
  "Ø": 216,
  "Ù": 217,
  "Ú": 218,
  "Û": 219,
  "Ü": 220,
  "Ý": 221,
  "Þ": 222,
  "ß": 223,
  "à": 224,
  "á": 225,
  "â": 226,
  "ã": 227,
  "ä": 228,
  "å": 229,
  "æ": 230,
  "ç": 231,
  "è": 232,
  "é": 233,
  "ê": 234,
  "ë": 235,
  "ì": 236,
  "í": 237,
  "î": 238,
  "ï": 239,
  "ð": 240,
  "ñ": 241,
  "ò": 242,
  "ó": 243,
  "ô": 244,
  "õ": 245,
  "ö": 246,
  "÷": 247,
  "ø": 248,
  "ù": 249,
  "ú": 250,
  "û": 251,
  "ü": 252,
  "ý": 253,
  "þ": 254,
  "ÿ": 255,
  "<|endoftext|>": 256,
  "Ġt": 257,
  "Ġa": 258,
  "he": 259,
  "in": 260,
  "re": 261,
  "Ġthe": 262,
  "on": 263,
  "er": 264,
  "Ġs": 265,
  "Ġw": 266,
  "at": 267,
  "Ġo": 268,
  "en": 269,
  "Ġc": 270,
  "it": 271,
  "is": 272,
  "an": 273,
  "or": 274,
  "Ġb": 275,
  "es": 276,
  "ed": 277,
  "Ġf": 278,
  "ing": 279,
  "Ġp": 280,
  "ou": 281,
  "Ġan": 282,
  "al": 283,
  "Ġto": 284,
  "ar": 285,
  "Ġm": 286,
  "Ġin": 287,
  "Ġof": 288,
  "Ġh": 289,
  "Ġd": 290,
  "as": 291,
  "âĢ": 292,
  "ic": 293,
  "Ġand": 294,
  "Ġth": 295,
  "le": 296,
  "om": 297,
  "ion": 298,
  "ll": 299,
  "ent": 300,
  "Ġn": 301,
  "Ġl": 302,
  "Ġre": 303,
  "st": 304,
  "ve": 305,
  "Ġe": 306,
  "ly": 307,
  "Ġbe": 308,
  "Ġg": 309,
  "ro": 310,
  "id": 311,
  "ac": 312,
  "ut": 313,
  "ot": 314,
  "ĠT": 315,
  "ĠI": 316,
  "Ġthat": 317,
  "Ġon": 318,
  "ay": 319,
  "ĠS": 320,
  "Ġis": 321,
  "am": 322,
  "im": 323,
  "et": 324,
  "ad": 325,
  "ow": 326,
  "ig": 327,
  "se": 328,
  "Ġfor": 329,
  "âĢĻ": 330,
  "ĠA": 331,
  "ver": 332,
  "ld": 333,
  "ur": 334,
  "ct": 335,
  "ĠC": 336,
  "Ġu": 337,
  "Ġst": 338,
  "Ġy": 339,
  "Ġit": 340,
  "Ġhe": 341,
  "ir": 342,
  "ation": 343,
  "ith": 344,
  "Ġwh": 345,
  "ĠM": 346,
  "ce": 347,
  "ter": 348,
  "ol": 349,
  "Ġwe": 350,
  "il": 351,
  "Ġwith": 352,
  "Ġas": 353,
  "ĠB": 354,
  "ch": 355,
  "ill": 356,
  "nd": 357,
  "Ġwas": 358,
  "ers": 359,
  "ĠP": 360,
  "Ġyou": 361,
  "ke": 362,
  "ĠâĢ": 363,
  "Ġcon": 364,
  "Ġde": 365,
  "Ġr": 366,
  "if": 367,
  "her": 368,
  "ate": 369,
  "Ġat": 370,
  "ag": 371,
  "ĠW": 372,
  "Ġha": 373,
  "Ġse": 374,
  "ĠH": 375,
  "ore": 376,
  "ul": 377,
  "Ġpro": 378,
  "pp": 379,
  "ment": 380,
  "Ġ1": 381,
  "ĠD": 382,
  "Ġare": 383,
  "ri": 384,
  "est": 385,
  "us": 386,
  "ist": 387,
  "ĠR": 388,
  "Ġcom": 389,
  "and": 390,
  "ain": 391,
  "op": 392,
  "Ġ2": 393,
  "ĠThe": 394,
  "igh": 395,
  "Ġ(": 396,
  "th": 397,
  "rom": 398,
  "od": 399,
  "Ġne": 400,
  "ĠF": 401,
  "um": 402,
  "un": 403,
  "Ġex": 404,
  "âĢĿ": 405,
  "ab": 406,
  "res": 407,
  "ĠN": 408,
  "Ġnot": 409,
  "Ġv": 410,
  "ess": 411,
  "Ġhave": 412,
  "ould": 413,
  "ity": 414,
  "em": 415,
  "Ġor": 416,
  "ort": 417,
  "Ġby": 418,
  "os": 419,
  "ant": 420,
  "ĠG": 421,
  "Ġfrom": 422,
  "ive": 423,
  "Ġal": 424,
  "'s": 425,
  "Ġsu": 426,
  "el": 427,
  "art": 428,
  "oc": 429,
  "ĠL": 430,
  "Ġsh": 431,
  "Ġthis": 432,
  "nt": 433,
  "qu": 434,
  "ight": 435,
  "ust": 436,
  "00": 437,
  "pe": 438,
  "Ġle": 439,
  "ies": 440,
  "end": 441,
  "Ġch": 442,
  "Ġsa": 443,
  "out": 444,
  "ĠE": 445,
  "Ġab": 446,
  "The": 447,
  "ie": 448,
  "ack": 449,
  "all": 450,
  "ĠâĢľ": 451,
  "red": 452,
  "ĠJ": 453,
  "Ġhas": 454,
  "Ġpl": 455,
  "ally": 456,
  "Ġgo": 457,
  "ard": 458,
  "ap": 459,
  "ear": 460,
  "Ġhis": 461,
  "iv": 462,
  "ome": 463,
  "gh": 464,
  "ost": 465,
  "ast": 466,
  "our": 467,
  "ĠO": 468,
  "Ġtr": 469,
  "Ġj": 470,
  "ak": 471,
  "Ġwor": 472,
  "ud": 473,
  "Ġthey": 474,
  "Ġdo": 475,
  "Ġbut": 476,
  "Ġsaid": 477,
  "ge": 478,
  "Ġcan": 479,
  "Ġwill": 480,
  "rou": 481,
  "Ġwhe": 482,
  "ĠU": 483,
  "Ġk": 484,
  "ok": 485,
  "ich": 486,
  "Ġall": 487,
  "Ġwho": 488,
  "ide": 489,
  "Ġ\"": 490,
  "ame": 491,
  "Ġint": 492,
  "ther": 493,
  "ans": 494,
  "Ġout": 495,
  "Ġtheir": 496,
  "ff": 497,
  "ial": 498,
  "ect": 499,
  "ong": 500,
  "pl": 501,
  "ice": 502,
  "ure": 503,
  "pt": 504,
  "Ġmore": 505,
  "age": 506,
  "ions": 507,
  "ous": 508,
  "ike": 509,
  "one": 510,
  "act": 511,
  "Ġme": 512,
  "Ġup": 513,
  "ine": 514,
  "Ġad": 515,
  "Ġabout": 516,
  "ra": 517,
  "ime": 518,
  "ated": 519,
  "Ġwere": 520,
  "Ġone": 521,
  "ber": 522,
  "og": 523,
  "Ġus": 524,
  "Ġso": 525,
  "ep": 526,
  "Ġhad": 527,
  "ub": 528,
  "are": 529,
  "ia": 530,
  "cc": 531,
  "ue": 532,
  "Ġ20": 533,
  "ĠK": 534,
  "Ġcl": 535,
  "Ġwould": 536,
  "Ġim": 537,
  "ind": 538,
  "iz": 539,
  "Ġag": 540,
  "Ġwhich": 541,
  "ake": 542,
  "very": 543,
  "Ġte": 544,
  "Ġcont": 545,
  "Ġun": 546,
  "Ġoff": 547,
  "Ġbeen": 548,
  "Ġcomp": 549,
  "ĠSt": 550,
  "so": 551,
  "au": 552,
  "Ġyear": 553,
  "per": 554,
  "ĠTh": 555,
  "Ġen": 556,
  "ign": 557,
  "ew": 558,
  "ip": 559,
  "ary": 560,
  "ace": 561,
  "Ġlike": 562,
  "ook": 563,
  "ven": 564,
  "ere": 565,
  "ays": 566,
  "Ġman": 567,
  "Ġinc": 568,
  "ry": 569,
  "Ġpe": 570,
  "ose": 571,
  "able": 572,
  "ite": 573,
  "Ġres": 574,
  "Ġper": 575,
  "ord": 576,
  "ass": 577,
  "Ġsp": 578,
  "mer": 579,
  "Ġother": 580,
  "ĠIn": 581,
  "Ġsome": 582,
  "ile": 583,
  "ire": 584,
  "Ġ201": 585,
  "ib": 586,
  "ople": 587,
  "ence": 588,
  "ical": 589,
  "Ġnew": 590,
  "Ġthere": 591,
  "Ġover": 592,
  "ations": 593,
  "ks": 594,
  "ult": 595,
  "Ġdis": 596,
  "ress": 597,
  "Ġalso": 598,
  "own": 599,
  "Ġthan": 600,
  "Ġar": 601,
  "ough": 602,
  "Ġbec": 603,
  "int": 604,
  "Ġthem": 605,
  "ance": 606,
  "ail": 607,
  "port": 608,
  "Ġwhen": 609,
  "Ġapp": 610,
  "ond": 611,
  "ount": 612,
  "ru": 613,
  "Ġyour": 614,
  "ree": 615,
  "Ġpart": 616,
  "Ġpeople": 617,
  "Ġwhat": 618,
  "Ġqu": 619,
  "fter": 620,
  "orm": 621,
  "Ġsc": 622,
  "av": 623,
  "ĠCh": 624,
  "ĠY": 625,
  "Ġjust": 626,
  "ase": 627,
  "Ġany": 628,
  "Ġkn": 629,
  "Ġ3": 630,
  "Ġits": 631,
  "Ġtime": 632,
  "ach": 633,
  "Ġher": 634,
  "ĠIt": 635,
  "ĠV": 636,
  "reat": 637,
  "Ġif": 638,
  "Ġmy": 639,
  "ens": 640,
  "Ġrec": 641,
  "ick": 642,
  "Ġget": 643,
  "vel": 644,
  ".âĢĿ": 645,
  "Ġinto": 646,
  "ound": 647,
  "irst": 648,
  "Ġtw": 649,
  "Ġno": 650,
  "ian": 651,
  "Ġwork": 652,
  "ction": 653,
  "du": 654,
  "Ġ-": 655,
  "ings": 656,
  "ory": 657,
  "lic": 658,
  "Ġplay": 659,
  "Ġour": 660,
  "ition": 661,
  "ident": 662,
  "ors": 663,
  "Ġpre": 664,
  "ob": 665,
  "ang": 666,
  "ove": 667,
  "ink": 668,
  "ade": 669,
  "ish": 670,
  "ause": 671,
  "wn": 672,
  "itt": 673,
  "ark": 674,
  "ates": 675,
  "amp": 676,
  "Ġshe": 677,
  "Ġro": 678,
  ",âĢĿ": 679,
  "Ġco": 680,
  "vers": 681,
  "Ġpol": 682,
  "Ġfirst": 683,
  "Ġafter": 684,
  "Ġhow": 685,
  "Ġcould": 686,
  "ious": 687,
  "nder": 688,
  "ne": 689,
  "Ġacc": 690,
  "ĠHe": 691,
  "ild": 692,
  "'t": 693,
  "Ġ19": 694,
  "Ġhim": 695,
  "Ġpo": 696,
  "aw": 697,
  "ons": 698,
  "Ġatt": 699,
  "hed": 700,
  "Ġfe": 701,
  "Ġonly": 702,
  "Ġpr": 703,
  "ict": 704,
  "Ġtwo": 705,
  "hing": 706,
  "we": 707,
  "âĢľ": 708,
  "ov": 709,
  "Ġser": 710,
  "Ġspe": 711,
  "form": 712,
  "Ġcomm": 713,
  ".\"": 714,
  "Ġbl": 715,
  "Ġbet": 716,
  "Ġact": 717,
  "ning": 718,
  "Ġdec": 719,
  "Ġback": 720,
  "ft": 721,
  "te": 722,
  "ces": 723,
  "Ġmost": 724,
  "oy": 725,
  "ood": 726,
  "Ġ4": 727,
  "Ġam": 728,
  "Ġdid": 729,
  "ck": 730,
  "Ġagain": 731,
  "iff": 732,
  "rough": 733,
  "round": 734,
  "ater": 735,
  "Ġunder": 736,
  "Ġwant": 737,
  "day": 738,
  "ual": 739,
  "ĠâĢĵ": 740,
  "ise": 741,
  "ĠâĢĶ": 742,
  "rit": 743,
  "Ġyears": 744,
  "sel": 745,
  "ull": 746,
  "..": 747,
  "ents": 748,
  "Ġdes": 749,
  "Ġbecause": 750,
  "Ġnow": 751,
  ",\"": 752,
  "tern": 753,
  "Ġeven": 754,
  "Ġcons": 755,
  "lud": 756,
  "Ġknow": 757,
  "ublic": 758,
  "iss": 759,
  "Ġinv": 760,
  "Ġneed": 761,
  "ec": 762,
  "man": 763,
  "old": 764,
  "Ġsec": 765,
  "Ġsee": 766,
  "Ġadd": 767,
  "Ġind": 768,
  "ĠWe": 769,
  "ments": 770,
  "Ġevery": 771,
  "ced": 772,
  "Ġ$": 773,
  "fore": 774,
  "uch": 775,
  "Ġ5": 776,
  "urn": 777,
  "Ġmake": 778,
  "Ġsupp": 779,
  "ĠUn": 780,
  "Ġem": 781,
  "pect": 782,
  "Ġthese": 783,
  "oll": 784,
  "ject": 785,
  "ock": 786,
  "Ġwhere": 787,
  "Ġlook": 788,
  "ational": 789,
  "ump": 790,
  "In": 791,
  "ason": 792,
  "Ġbu": 793,
  "vern": 794,
  "iew": 795,
  "Ġdon": 796,
  "Ġway": 797,
  "xt": 798,
  "Ġright": 799,
  "ĠAnd": 800,
  "ily": 801,
  "Ġbeing": 802,
  "Th": 803,
  "ng": 804,
  "Ġev": 805,
  "les": 806,
  "Ġmay": 807,
  "ating": 808,
  "oss": 809,
  "ĠTr": 810,
  "Ġdiff": 811,
  "Ġmany": 812,
  "Ġrel": 813,
  "Ġrem": 814,
  "Ġthen": 815,
  "row": 816,
  "lect": 817,
  "Ġdef": 818,
  "ased": 819,
  "Ġcall": 820,
  "ath": 821,
  "Ġthink": 822,
  "ied": 823,
  "ĠBut": 824,
  "meric": 825,
  "aking": 826,
  "Ġ[": 827,
  "ited": 828,
  "Ġlast": 829,
  "Ġinclud": 830,
  "ont": 831,
  "Ġimp": 832,
  "Ġsay": 833,
  "Ġthrough": 834,
  "Ġshould": 835,
  "Ġthose": 836,
  "ower": 837,
  "ific": 838,
  "other": 839,
  ").": 840,
  "uring": 841,
  "Ġreg": 842,
  "Ġfl": 843,
  "Ġvery": 844,
  "ell": 845,
  "Ġpres": 846,
  "rib": 847,
  "Ġsy": 848,
  "Ġmuch": 849,
  "arg": 850,
  "ities": 851,
  "Ġbr": 852,
  "Ġshow": 853,
  "Ġstate": 854,
  "ting": 855,
  "ss": 856,
  "hen": 857,
  "ĠThis": 858,
  "Ġbel": 859,
  "ved": 860,
  "Ġph": 861,
  "ty": 862,
  "Ġwell": 863,
  "ative": 864,
  "ics": 865,
  "ange": 866,
  "ĠWh": 867,
  "Ġend": 868,
  "Ġdoes": 869,
  "und": 870,
  "Ġown": 871,
  "Ġdown": 872,
  "Ġass": 873,
  "als": 874,
  "Ġ200": 875,
  "com": 876,
  "ters": 877,
  "arly": 878,
  "oth": 879,
  "Ġcount": 880,
  "Ġmon": 881,
  "ĠAmeric": 882,
  "Ġuse": 883,
  "ince": 884,
  "ward": 885,
  "omet": 886,
  "Ġbefore": 887,
  "Ġlong": 888,
  "Ġteam": 889,
  "up": 890,
  "Ġstart": 891,
  "gr": 892,
  "ĠNew": 893,
  "ues": 894,
  "Ġgovern": 895,
  "Ġreport": 896,
  "Ġke": 897,
  "ible": 898,
  "olog": 899,
  "ener": 900,
  "ife": 901,
  "ts": 902,
  "Ġmade": 903,
  "ren": 904,
  "ble": 905,
  "Ġfin": 906,
  "--": 907,
  "oun": 908,
  "ix": 909,
  "Ġsm": 910,
  "Ġworld": 911,
  "Ġsuch": 912,
  "Ġgame": 913,
  "erson": 914,
  "Ġgoing": 915,
  "),": 916,
  "Ġsub": 917,
  "000": 918,
  "Ġgood": 919,
  "ful": 920,
  "Ġhel": 921,
  "It": 922,
  "ism": 923,
  "ek": 924,
  "Ġac": 925,
  "Ġagainst": 926,
  "Ġ6": 927,
  "ility": 928,
  "ork": 929,
  "ually": 930,
  "Ġgu": 931,
  "ert": 932,
  "Ġpoint": 933,
  "Ġsur": 934,
  "Ġstud": 935,
  "Ġeff": 936,
  "ys": 937,
  "gan": 938,
  "Ġent": 939,
  "its": 940,
  "ists": 941,
  "ier": 942,
  "Ġstill": 943,
  "Ġset": 944,
  "ars": 945,
  "ax": 946,
  "ween": 947,
  "Ġlead": 948,
  "Ġhelp": 949,
  "Ġgr": 950,
  "imes": 951,
  "roup": 952,
  "Ġsays": 953,
  "ving": 954,
  "Ġcol": 955,
  "Ġmin": 956,
  "ef": 957,
  "stem": 958,
  "Ġob": 959,
  "âĢĶ": 960,
  "io": 961,
  "Ġwhile": 962,
  "alk": 963,
  "ms": 964,
  "illion": 965,
  "Ġprodu": 966,
  "self": 967,
  "ank": 968,
  "Ġsim": 969,
  "Ġthough": 970,
  "Ġbetween": 971,
  "cy": 972,
  "Ġtake": 973,
  "Ġsame": 974,
  "cess": 975,
  "ah": 976,
  "Ġdiffere": 977,
  "ollow": 978,
  "Ġnum": 979,
  "Ġstr": 980,
  "ures": 981,
  "ames": 982,
  "Ġconf": 983,
  "Ġhigh": 984,
  "Ġinter": 985,
  "arch": 986,
  "ever": 987,
  "Ġcr": 988,
  "Ġop": 989,
  "air": 990,
  "Ġinst": 991,
  "uss": 992,
  "Ġsign": 993,
  "ĠRe": 994,
  "atch": 995,
  "Ġoffic": 996,
  "ool": 997,
  "led": 998,
  "Ġlaw": 999,
  "hip": 1000,
  "Ġdisc": 1001,
  "cent": 1002,
  "gg": 1003,
  "ner": 1004,
  "Ġprov": 1005,
  "way": 1006,
  "Ġins": 1007,
  "Ġret": 1008,
  "read": 1009,
  "hes": 1010,
  "any": 1011,
  "velop": 1012,
  "Ġgovernment": 1013,
  "Ġsomet": 1014,
  "Ġed": 1015,
  "land": 1016,
  "ution": 1017,
  "Ġmed": 1018,
  "We": 1019,
  "Ġthree": 1020,
  "Ġref": 1021,
  "ee": 1022,
  "Ġter": 1023,
  "Ġtrans": 1024,
  "Ġfound": 1025,
  "ouse": 1026,
  "Ġrun": 1027,
  "Ġaround": 1028,
  "Ġhere": 1029,
  "Ġ10": 1030,
  "Ġreal": 1031,
  "ĠAl": 1032,
  "Ġused": 1033,
  "oot": 1034,
  "Ġmem": 1035,
  "ather": 1036,
  "ĠYou": 1037,
  "ave": 1038,
  "ives": 1039,
  "az": 1040,
  "----": 1041,
  "ale": 1042,
  "con": 1043,
  "Ġexp": 1044,
  "Ġsystem": 1045,
  "alth": 1046,
  "ets": 1047,
  "Ġsl": 1048,
  "Ġgroup": 1049,
  "ci": 1050,
  "cept": 1051,
  "ĠAr": 1052,
  "Ġ7": 1053,
  "Ġreally": 1054,
  "ves": 1055,
  "inin": 31999,
  "Ġsupport": 1057,
  "Ġcour": 1058,
  "ense": 1059
}